<pad>	0
<unk>	0
<s>	0
</s>	0
▁1	-0
▁a	-1
▁i	-2
▁k	-3
▁t	-4
in	-5
▁s	-6
is	-7
▁m	-8
▁w	-9
▁n	-10
▁o	-11
▁p	-12
ik	-13
he	-14
oo	-15
it	-16
wa	-17
▁2	-18
im	-19
▁c	-20
▁h	-21
ak	-22
an	-23
ow	-24
sk	-25
▁ê	-26
re	-27
un	-28
ta	-29
▁.	-30
ih	-31
▁in	-32
▁b	-33
er	-34
at	-35
es	-36
ew	-37
▁is	-38
on	-39
as	-40
▁f	-41
▁l	-42
▁e	-43
aw	-44
▁â	-45
▁an	-46
▁it	-47
am	-48
▁d	-49
▁y	-50
▁3	-51
hk	-52
us	-53
isk	-54
▁he	-55
ch	-56
ip	-57
en	-58
um	-59
iy	-60
▁the	-61
ht	-62
ap	-63
ay	-64
uk	-65
ân	-66
ot	-67
or	-68
ing	-69
ar	-70
os	-71
âk	-72
▁kî	-73
io	-74
▁4	-75
âw	-76
ut	-77
▁g	-78
le	-79
ah	-80
▁kit	-81
wê	-82
▁(	-83
win	-84
ll	-85
om	-86
▁as	-87
ed	-88
▁th	-89
▁r	-90
âp	-91
▁him	-92
oos	-93
ic	-94
et	-95
▁of	-96
▁)	-97
ou	-98
wak	-99
ac	-100
ao	-101
▁kâ	-102
ask	-103
▁to	-104
▁ak	-105
ist	-106
▁ay	-107
ey	-108
iw	-109
▁ik	-110
ât	-111
usk	-112
al	-113
cik	-114
tam	-115
êw	-116
▁se	-117
▁v	-118
▁re	-119
êy	-120
▁ch	-121
▁6	-122
▁us	-123
▁be	-124
▁iy	-125
▁st	-126
▁we	-127
▁at	-128
▁oo	-129
▁u	-130
▁nik	-131
▁5	-132
ihk	-133
oon	-134
âs	-135
▁or	-136
id	-137
che	-138
▁wî	-139
ci	-140
ion	-141
iht	-142
uy	-143
ig	-144
▁kita	-145
isew	-146
▁ki	-147
▁on	-148
ikun	-149
ce	-150
ad	-151
ent	-152
pe	-153
▁êy	-154
ir	-155
▁ta	-156
oot	-157
isi	-158
em	-159
wao	-160
▁êk	-161
▁pim	-162
her	-163
▁êh	-164
ly	-165
ve	-166
êk	-167
wan	-168
▁ni	-169
▁wâp	-170
wun	-171
▁isk	-172
st	-173
ver	-174
▁for	-175
▁ing	-176
▁kik	-177
ur	-178
il	-179
▁nit	-180
htê	-181
and	-182
▁ô	-183
▁me	-184
▁?	-185
▁ot	-186
oun	-187
▁wh	-188
▁kis	-189
ge	-190
▁ap	-191
▁miy	-192
ast	-193
âm	-194
oh	-195
cih	-196
▁ow	-197
▁win	-198
▁kisk	-199
îs	-200
all	-201
ok	-202
se	-203
▁j	-204
▁7	-205
▁wak	-206
▁ât	-207
▁pl	-208
▁,	-209
ri	-210
îk	-211
▁you	-212
ek	-213
▁mis	-214
▁ed	-215
wâ	-216
was	-217
ich	-218
▁sh	-219
ook	-220
wap	-221
ight	-222
▁ihk	-223
up	-224
▁ly	-225
▁com	-226
▁8	-227
way	-228
ep	-229
▁kîs	-230
▁tip	-231
▁de	-232
îh	-233
ck	-234
▁wor	-235
▁kak	-236
▁es	-237
▁sm	-238
ahk	-239
owin	-240
▁mak	-241
op	-242
ét	-243
êh	-244
âhk	-245
uyew	-246
ter	-247
▁con	-248
▁mu	-249
▁pr	-250
▁br	-251
▁en	-252
th	-253
ul	-254
ith	-255
iwa	-256
▁sk	-257
▁aw	-258
▁&	-259
ome	-260
▁tân	-261
ld	-262
▁am	-263
▁fr	-264
▁che	-265
▁nip	-266
ess	-267
▁hk	-268
ên	-269
▁ân	-270
▁kâk	-271
▁spe	-272
▁tak	-273
▁she	-274
▁pay	-275
▁man	-276
amp	-277
▁whe	-278
▁’	-279
▁ne	-280
▁mit	-281
ct	-282
▁mo	-283
▁up	-284
▁this	-285
wi	-286
ây	-287
▁so	-288
ish	-289
▁êw	-290
▁kin	-291
qu	-292
ong	-293
▁oos	-294
est	-295
▁with	-296
ach	-297
▁mî	-298
akun	-299
▁are	-300
▁min	-301
▁num	-302
ant	-303
▁go	-304
▁âw	-305
▁and	-306
▁al	-307
▁ro	-308
oowin	-309
▁un	-310
ewin	-311
if	-312
▁pe	-313
awin	-314
▁na	-315
▁isp	-316
▁yân	-317
▁wâpam	-318
ry	-319
▁kîh	-320
êp	-321
▁bl	-322
▁by	-323
ers	-324
▁le	-325
▁ây	-326
▁co	-327
ikan	-328
uh	-329
▁gr	-330
▁ht	-331
ood	-332
ree	-333
▁ke	-334
▁tap	-335
▁was	-336
ôn	-337
▁cl	-338
ack	-339
▁su	-340
▁im	-341
▁os	-342
▁small	-343
ate	-344
wat	-345
▁ho	-346
▁oh	-347
▁wa	-348
oosk	-349
ain	-350
der	-351
taw	-352
▁ab	-353
▁mey	-354
ihtam	-355
▁9	-356
▁uk	-357
▁nam	-358
▁pak	-359
▁ka	-360
▁ok	-361
ohtê	-362
▁speak	-363
ês	-364
▁sp	-365
ound	-366
▁âp	-367
asin	-368
ill	-369
res	-370
amih	-371
▁ita	-372
ine	-373
▁li	-374
êyi	-375
oosew	-376
▁êwak	-377
▁there	-378
▁ad	-379
▁my	-380
▁pas	-381
▁kîsik	-382
▁nak	-383
▁one	-384
ide	-385
▁ey	-386
▁ast	-387
▁out	-388
▁kist	-389
art	-390
▁do	-391
wêw	-392
ise	-393
▁nis	-394
▁kiskin	-395
one	-396
oop	-397
ost	-398
▁tr	-399
ie	-400
cim	-401
▁mik	-402
îw	-403
▁cik	-404
▁kâh	-405
▁way	-406
▁pa	-407
other	-408
▁that	-409
îp	-410
ick	-411
▁kan	-412
▁kih	-413
▁puk	-414
▁word	-415
osk	-416
▁ma	-417
▁wap	-418
▁some	-419
we	-420
oom	-421
▁10	-422
▁her	-423
▁not	-424
▁wiy	-425
▁êm	-426
▁wat	-427
▁ar	-428
▁no	-429
ôt	-430
âkos	-431
wio	-432
▁er	-433
amik	-434
owao	-435
▁mask	-436
▁ah	-437
▁oot	-438
▁sta	-439
our	-440
▁speaking	-441
oy	-442
ace	-443
▁cr	-444
▁ut	-445
▁ook	-446
ble	-447
▁pap	-448
ore	-449
▁str	-450
▁kitah	-451
end	-452
ime	-453
étum	-454
▁ask	-455
wah	-456
âsk	-457
▁his	-458
wawin	-459
▁nikî	-460
umik	-461
▁day	-462
ati	-463
▁kika	-464
▁nika	-465
el	-466
ît	-467
▁te	-468
isin	-469
▁when	-470
cis	-471
▁ex	-472
ihta	-473
ust	-474
êyim	-475
isewin	-476
ard	-477
▁kuk	-478
ikw	-479
ild	-480
îhk	-481
▁kes	-482
▁off	-483
▁nitaw	-484
▁fe	-485
▁om	-486
▁tô	-487
▁ind	-488
▁wun	-489
▁part	-490
ght	-491
▁po	-492
▁sc	-493
▁pîk	-494
▁sep	-495
asinah	-496
▁nes	-497
▁anim	-498
▁pê	-499
▁af	-500
▁lo	-501
▁taw	-502
▁ter	-503
▁much	-504
▁;	-505
▁âk	-506
▁âwak	-507
day	-508
iche	-509
iyaw	-510
▁but	-511
▁kun	-512
▁pre	-513
ather	-514
▁masinah	-515
ice	-516
iwê	-517
▁fl	-518
ihtâ	-519
oose	-520
▁wey	-521
▁isew	-522
oht	-523
▁nat	-524
▁oosk	-525
▁‘	-526
tah	-527
▁ohk	-528
▁sâk	-529
▁used	-530
ôs	-531
aht	-532
wêy	-533
▁ag	-534
▁sak	-535
▁wâw	-536
▁yan	-537
akwun	-538
▁âwâw	-539
▁.)	-540
▁kim	-541
▁sin	-542
▁will	-543
▁muche	-544
iao	-545
sin	-546
▁ac	-547
ikoo	-548
itin	-549
▁cor	-550
▁has	-551
▁musk	-552
own	-553
▁wîk	-554
▁kâkî	-555
▁owin	-556
îm	-557
ikê	-558
ous	-559
ure	-560
▁si	-561
▁your	-562
au	-563
âh	-564
ass	-565
▁mâm	-566
▁kusk	-567
▁mist	-568
ful	-569
▁usp	-570
gh	-571
are	-572
ies	-573
ihc	-574
ike	-575
ose	-576
▁mâ	-577
▁wan	-578
wapisk	-579
▁oowin	-580
ag	-581
▁'	-582
ity	-583
▁cî	-584
▁tum	-585
▁tâp	-586
iki	-587
ive	-588
row	-589
▁res	-590
▁see	-591
▁misk	-592
▁miyo	-593
oth	-594
▁ew	-595
▁mi	-596
ds	-597
eh	-598
iv	-599
now	-600
▁bo	-601
▁sa	-602
▁êp	-603
imoo	-604
êm	-605
▁mat	-606
▁pip	-607
▁wîcih	-608
ze	-609
ite	-610
iwî	-611
use	-612
atik	-613
▁lit	-614
▁mây	-615
▁âcik	-616
ôhk	-617
▁ôm	-618
ache	-619
▁dis	-620
▁nut	-621
▁sis	-622
▁mihk	-623
▁tion	-624
waw	-625
wât	-626
▁ên	-627
âkan	-628
▁nap	-629
ation	-630
ren	-631
otin	-632
▁kip	-633
▁kîk	-634
▁nan	-635
▁nun	-636
▁pus	-637
▁ever	-638
▁mîcis	-639
▁where	-640
ber	-641
oss	-642
▁kiy	-643
▁pîkisk	-644
▁kîsikâw	-645
▁dr	-646
▁tw	-647
oost	-648
ôhtê	-649
▁put	-650
▁tow	-651
▁iyin	-652
▁nist	-653
so	-654
▁|	-655
pit	-656
▁ye	-657
▁all	-658
▁can	-659
▁gre	-660
▁nêh	-661
▁comp	-662
▁kask	-663
▁tahk	-664
▁time	-665
▁black	-666
▁kakwê	-667
ôm	-668
ohk	-669
ress	-670
▁hit	-671
▁kâw	-672
▁from	-673
▁êyiht	-674
ty	-675
îht	-676
▁iw	-677
▁saw	-678
▁water	-679
▁!	-680
ape	-681
ase	-682
▁ha	-683
imao	-684
isiy	-685
▁pes	-686
▁wîh	-687
▁chik	-688
▁after	-689
▁êyihtam	-690
ire	-691
tap	-692
▁ahk	-693
▁awa	-694
▁eat	-695
▁mân	-696
▁hand	-697
êt	-698
ian	-699
isah	-700
▁any	-701
▁bir	-702
▁per	-703
▁too	-704
▁them	-705
▁yiwa	-706
lt	-707
oow	-708
ort	-709
ooch	-710
ough	-711
iskow	-712
▁ayamih	-713
na	-714
▁ét	-715
wach	-716
▁isi	-717
▁net	-718
▁now	-719
▁wek	-720
▁wood	-721
ikamik	-722
▁nêhiyaw	-723
wân	-724
▁12	-725
isit	-726
▁hat	-727
▁pie	-728
▁pis	-729
▁red	-730
▁usk	-731
wasôn	-732
▁over	-733
▁what	-734
▁puyew	-735
do	-736
▁11	-737
iwin	-738
tion	-739
▁lar	-740
▁mam	-741
▁sip	-742
▁comm	-743
▁more	-744
▁want	-745
▁wask	-746
orn	-747
uch	-748
▁fo	-749
▁ip	-750
▁sl	-751
imow	-752
▁mac	-753
▁pin	-754
▁têp	-755
▁wow	-756
▁htam	-757
▁tôtam	-758
▁nawasôn	-759
ang	-760
red	-761
▁ês	-762
amâk	-763
inew	-764
▁nâp	-765
▁uch	-766
▁asin	-767
uhikun	-768
▁tipisk	-769
ab	-770
te	-771
tow	-772
wam	-773
âst	-774
îsim	-775
▁uta	-776
▁long	-777
▁ooch	-778
▁tâni	-779
ipuyew	-780
▁child	-781
ff	-782
age	-783
ark	-784
ata	-785
isa	-786
âwa	-787
▁if	-788
▁op	-789
▁ach	-790
▁awin	-791
▁niwî	-792
▁piece	-793
av	-794
lf	-795
ôy	-796
hio	-797
ita	-798
oup	-799
anaw	-800
icik	-801
▁car	-802
▁wîc	-803
▁âhk	-804
▁é	-805
▁”	-806
ake	-807
▁qu	-808
imio	-809
▁men	-810
▁tam	-811
▁ewin	-812
▁work	-813
▁êhit	-814
▁êyim	-815
isiwin	-816
ma	-817
ts	-818
imi	-819
tal	-820
▁kw	-821
etow	-822
▁hik	-823
▁oom	-824
▁osk	-825
▁êkî	-826
▁êwin	-827
▁cloth	-828
▁payuk	-829
▁pimât	-830
▁iskwêw	-831
oe	-832
âta	-833
iver	-834
âcih	-835
▁ass	-836
▁get	-837
▁kah	-838
▁kâm	-839
▁kâp	-840
▁sik	-841
▁icik	-842
▁kesk	-843
▁anima	-844
▁meyoo	-845
ue	-846
led	-847
ull	-848
wây	-849
êsk	-850
▁mêk	-851
▁tuk	-852
ihcik	-853
▁cree	-854
▁kikî	-855
▁wâpah	-856
og	-857
wâs	-858
itow	-859
llow	-860
▁mât	-861
▁nîs	-862
▁pet	-863
▁wom	-864
▁cont	-865
▁fish	-866
▁mise	-867
▁ohci	-868
▁êkos	-869
▁atosk	-870
▁right	-871
în	-872
uck	-873
▁gl	-874
unow	-875
▁ache	-876
▁iyit	-877
▁going	-878
▁thing	-879
▁wayaw	-880
▁mîciso	-881
▁strong	-882
▁:	-883
aki	-884
asp	-885
sew	-886
tle	-887
▁ih	-888
▁oy	-889
▁uh	-890
ance	-891
inum	-892
uche	-893
▁cap	-894
▁kay	-895
▁may	-896
▁pêy	-897
▁pôn	-898
▁tle	-899
▁tâk	-900
▁kana	-901
ai	-902
uw	-903
ath	-904
ife	-905
ihi	-906
int	-907
ito	-908
ush	-909
ikow	-910
lect	-911
▁ana	-912
▁did	-913
▁iwâ	-914
▁naw	-915
▁oon	-916
▁pêh	-917
▁akoo	-918
▁bear	-919
▁pahk	-920
▁pers	-921
▁other	-922
▁place	-923
▁chikun	-924
ne	-925
awi	-926
ven	-927
▁âs	-928
tain	-929
▁hay	-930
▁how	-931
▁key	-932
▁kâs	-933
apisk	-934
▁fore	-935
▁name	-936
▁rous	-937
▁snow	-938
▁year	-939
▁large	-940
▁white	-941
▁kihcih	-942
ool	-943
wês	-944
▁el	-945
▁od	-946
imos	-947
imâw	-948
▁bre	-949
▁ill	-950
aught	-951
▁ikan	-952
▁inân	-953
▁mîna	-954
▁tree	-955
ov	-956
pl	-957
alk	-958
▁oc	-959
▁wr	-960
▁loc	-961
▁mus	-962
▁mâk	-963
▁nin	-964
▁good	-965
▁again	-966
êyihtam	-967
▁indian	-968
▁itohtê	-969
▁person	-970
imo	-971
ally	-972
htâw	-973
▁mum	-974
▁niy	-975
▁suk	-976
▁tik	-977
▁isin	-978
▁ispî	-979
▁koos	-980
▁like	-981
▁rock	-982
▁sôhk	-983
▁êkwa	-984
▁kisew	-985
▁pimit	-986
▁î	-987
akî	-988
oor	-989
tao	-990
▁ko	-991
▁pi	-992
oung	-993
▁kaw	-994
▁pek	-995
▁pow	-996
▁pup	-997
▁tah	-998
▁ten	-999
▁êko	-1000
ouple	-1001
▁misi	-1002
▁êcik	-1003
▁metal	-1004
▁pêyak	-1005
▁wiyas	-1006
▁young	-1007
▁ayétum	-1008
▁couple	-1009
▁koosew	-1010
▁masinahikan	-1011
ud	-1012
app	-1013
imâ	-1014
ink	-1015
ves	-1016
▁ek	-1017
ikak	-1018
▁bea	-1019
▁cal	-1020
▁fir	-1021
▁imp	-1022
▁old	-1023
▁oop	-1024
▁use	-1025
▁wes	-1026
▁iwin	-1027
▁iyan	-1028
▁well	-1029
▁kanaw	-1030
▁kiche	-1031
▁nâpêw	-1032
▁round	-1033
▁under	-1034
gl	-1035
gin	-1036
▁13	-1037
▁êt	-1038
inao	-1039
▁kat	-1040
▁mas	-1041
▁sew	-1042
▁numma	-1043
▁mother	-1044
▁kiskinoh	-1045
ank	-1046
oat	-1047
out	-1048
▁ve	-1049
▁ôt	-1050
imis	-1051
ipay	-1052
iwak	-1053
îkân	-1054
▁bel	-1055
▁ear	-1056
▁mow	-1057
▁thr	-1058
▁yit	-1059
oomin	-1060
▁iyiw	-1061
▁look	-1062
▁nume	-1063
▁pusk	-1064
▁sist	-1065
▁âkan	-1066
▁êyit	-1067
iwêwin	-1068
▁mamih	-1069
▁brother	-1070
ék	-1071
iff	-1072
iya	-1073
ooy	-1074
tay	-1075
ôya	-1076
ikao	-1077
owio	-1078
wask	-1079
▁des	-1080
▁hum	-1081
▁nât	-1082
▁rem	-1083
▁ver	-1084
▁down	-1085
▁hole	-1086
▁home	-1087
▁ment	-1088
▁poon	-1089
▁skin	-1090
▁yahk	-1091
▁iyiwa	-1092
▁kihci	-1093
▁sipwê	-1094
▁those	-1095
▁yétum	-1096
▁nitawi	-1097
▁êyihta	-1098
▁nawasônikê	-1099
dy	-1100
▁ud	-1101
able	-1102
iton	-1103
owak	-1104
task	-1105
▁chi	-1106
▁hot	-1107
▁kân	-1108
▁low	-1109
▁maw	-1110
▁nân	-1111
▁wêw	-1112
▁ikot	-1113
▁ness	-1114
ikumik	-1115
▁ispay	-1116
▁nikam	-1117
▁udder	-1118
▁namôya	-1119
cî	-1120
ema	-1121
ile	-1122
ows	-1123
ence	-1124
iyit	-1125
ohta	-1126
ount	-1127
▁acc	-1128
▁iki	-1129
▁kot	-1130
▁new	-1131
ipaht	-1132
▁ance	-1133
▁kîwê	-1134
▁ling	-1135
▁miht	-1136
▁owak	-1137
▁wayawît	-1138
pi	-1139
ave	-1140
igh	-1141
ind	-1142
ock	-1143
ord	-1144
wâw	-1145
âki	-1146
▁ce	-1147
▁mê	-1148
▁cih	-1149
▁iht	-1150
▁nay	-1151
▁ohp	-1152
▁pik	-1153
▁sîp	-1154
▁tat	-1155
▁who	-1156
▁ôta	-1157
ikwun	-1158
▁back	-1159
▁side	-1160
▁soon	-1161
▁wusk	-1162
ipahtâ	-1163
▁which	-1164
▁kîkway	-1165
ame	-1166
iss	-1167
ual	-1168
▁di	-1169
âkay	-1170
ôtin	-1171
▁adv	-1172
▁age	-1173
▁bur	-1174
▁ser	-1175
▁yak	-1176
iskin	-1177
waham	-1178
▁also	-1179
▁awus	-1180
▁ayow	-1181
▁fire	-1182
▁kwun	-1183
▁line	-1184
▁liqu	-1185
▁mâyi	-1186
▁thir	-1187
êyihta	-1188
▁tâpwê	-1189
▁woman	-1190
▁pewapisk	-1191
éo	-1192
éw	-1193
itô	-1194
tic	-1195
uth	-1196
▁14	-1197
▁nô	-1198
▁tu	-1199
▁ôs	-1200
htên	-1201
leep	-1202
ment	-1203
ould	-1204
ries	-1205
âsis	-1206
▁nâk	-1207
▁oht	-1208
▁tan	-1209
▁yin	-1210
iskew	-1211
▁dist	-1212
▁happ	-1213
▁isah	-1214
▁ocik	-1215
▁pisk	-1216
▁rain	-1217
▁âpac	-1218
▁every	-1219
▁daught	-1220
▁mistik	-1221
ca	-1222
▁¢	-1223
ech	-1224
hao	-1225
ign	-1226
ott	-1227
per	-1228
ret	-1229
uta	-1230
▁15	-1231
▁em	-1232
▁um	-1233
▁âh	-1234
ekan	-1235
imin	-1236
tawê	-1237
uyan	-1238
âcik	-1239
▁adj	-1240
▁ans	-1241
▁bad	-1242
▁bri	-1243
▁inf	-1244
▁kas	-1245
▁kîp	-1246
▁mon	-1247
▁mun	-1248
▁vot	-1249
▁wât	-1250
watuk	-1251
▁form	-1252
▁isse	-1253
▁kway	-1254
▁kâwî	-1255
▁omit	-1256
▁pîht	-1257
▁sees	-1258
▁anihi	-1259
▁elect	-1260
▁iwâwa	-1261
▁local	-1262
▁takes	-1263
▁êhisi	-1264
akoosew	-1265
▁liquid	-1266
▁minihk	-1267
▁compass	-1268
▁pîkiskw	-1269
iio	-1270
wut	-1271
▁kn	-1272
ious	-1273
isoo	-1274
side	-1275
êwin	-1276
▁bar	-1277
▁har	-1278
▁nêw	-1279
▁our	-1280
▁pit	-1281
▁wâk	-1282
▁ayum	-1283
▁care	-1284
▁pron	-1285
▁they	-1286
▁ânaw	-1287
ahikan	-1288
▁kitim	-1289
▁wisew	-1290
ichikun	-1291
▁miywêy	-1292
ra	-1293
▁“	-1294
rid	-1295
ange	-1296
ikin	-1297
land	-1298
ness	-1299
▁col	-1300
▁mâw	-1301
▁sap	-1302
▁sek	-1303
▁set	-1304
▁yêk	-1305
ootin	-1306
orrow	-1307
▁dece	-1308
▁ends	-1309
▁last	-1310
▁moos	-1311
▁mâna	-1312
▁osâp	-1313
▁star	-1314
▁wast	-1315
▁wech	-1316
▁wina	-1317
▁wind	-1318
▁êyiwa	-1319
oopuyew	-1320
▁awâsis	-1321
▁ipîsim	-1322
▁kistik	-1323
▁mussin	-1324
▁pimâcih	-1325
▁takohtê	-1326
▁êyihtên	-1327
▁pimitisah	-1328
▁compassion	-1329
bl	-1330
ary	-1331
awî	-1332
dle	-1333
emp	-1334
ooh	-1335
owa	-1336
ved	-1337
▁la	-1338
▁wu	-1339
htop	-1340
êwak	-1341
▁der	-1342
▁hor	-1343
▁let	-1344
▁sec	-1345
▁son	-1346
▁tim	-1347
▁tin	-1348
▁wac	-1349
ridge	-1350
▁bird	-1351
▁duck	-1352
▁iyaw	-1353
▁iyik	-1354
▁kind	-1355
▁mean	-1356
▁mîci	-1357
▁nita	-1358
▁pass	-1359
▁tipa	-1360
▁yihk	-1361
▁yâhk	-1362
▁nôhtê	-1363
▁these	-1364
▁étakwun	-1365
▁partridge	-1366
tk	-1367
cin	-1368
ici	-1369
oke	-1370
âso	-1371
▁et	-1372
▁ra	-1373
usin	-1374
▁eye	-1375
▁gen	-1376
▁giv	-1377
▁hel	-1378
▁ion	-1379
▁nîp	-1380
▁sit	-1381
▁sug	-1382
▁two	-1383
▁answ	-1384
▁ayim	-1385
▁mech	-1386
▁nisk	-1387
▁play	-1388
▁wîki	-1389
▁âyêk	-1390
eyinew	-1391
▁mêkwâ	-1392
▁nipah	-1393
▁sleep	-1394
▁atisew	-1395
▁muskow	-1396
▁kiskino	-1397
▁tisewin	-1398
▁wâpamâw	-1399
▁kiskêyihtam	-1400
▁—	-1401
hes	-1402
ohc	-1403
war	-1404
▁ti	-1405
▁tê	-1406
amin	-1407
ipon	-1408
▁app	-1409
▁iss	-1410
▁ket	-1411
▁kwi	-1412
▁ney	-1413
▁ste	-1414
▁ust	-1415
▁wêp	-1416
ahtên	-1417
istik	-1418
ought	-1419
▁anis	-1420
▁bead	-1421
▁coat	-1422
▁diff	-1423
▁four	-1424
▁kîsp	-1425
▁pôni	-1426
▁sand	-1427
▁self	-1428
▁sing	-1429
▁wapi	-1430
▁wiya	-1431
▁iskow	-1432
▁nikamo	-1433
▁tapisk	-1434
htopipon	-1435
▁êyihtahk	-1436
▁pimipahtâ	-1437
cl	-1438
ôh	-1439
isî	-1440
tas	-1441
▁ev	-1442
▁kê	-1443
▁ob	-1444
imik	-1445
itum	-1446
oway	-1447
ukow	-1448
wasi	-1449
▁ati	-1450
▁dog	-1451
▁pem	-1452
▁pro	-1453
▁sîk	-1454
▁tre	-1455
imoon	-1456
oowao	-1457
wêwin	-1458
âkwan	-1459
▁appe	-1460
▁asew	-1461
▁come	-1462
▁goes	-1463
▁hard	-1464
▁hold	-1465
▁many	-1466
▁mich	-1467
▁need	-1468
▁otân	-1469
▁taht	-1470
▁then	-1471
▁toot	-1472
▁upis	-1473
▁uspu	-1474
▁alone	-1475
▁nekan	-1476
▁answer	-1477
▁little	-1478
▁wîhtam	-1479
▁mawimos	-1480
▁wikamik	-1481
▁election	-1482
▁kanawêyi	-1483
▁omitanaw	-1484
dk	-1485
ft	-1486
ro	-1487
▁q	-1488
wow	-1489
▁gu	-1490
▁id	-1491
asew	-1492
enty	-1493
iniw	-1494
oota	-1495
ream	-1496
rent	-1497
▁bit	-1498
▁iko	-1499
▁ken	-1500
▁kow	-1501
▁nim	-1502
▁pen	-1503
▁sal	-1504
▁yes	-1505
asure	-1506
ering	-1507
ootow	-1508
press	-1509
wakun	-1510
▁call	-1511
▁chim	-1512
▁head	-1513
▁isiy	-1514
▁most	-1515
▁mâci	-1516
▁napa	-1517
▁near	-1518
▁oota	-1519
▁read	-1520
▁suff	-1521
▁count	-1522
▁short	-1523
▁sound	-1524
▁think	-1525
▁another	-1526
▁mâmiton	-1527
▁through	-1528
iz	-1529
aio	-1530
akw	-1531
eth	-1532
ond	-1533
▁16	-1534
▁nâ	-1535
asoo	-1536
ches	-1537
idle	-1538
inuk	-1539
iwun	-1540
uwio	-1541
▁cur	-1542
▁hun	-1543
▁sea	-1544
▁sim	-1545
▁sun	-1546
▁sup	-1547
▁tri	-1548
▁war	-1549
▁wuk	-1550
▁âsk	-1551
▁êpê	-1552
akoos	-1553
sewun	-1554
▁able	-1555
▁akun	-1556
▁dead	-1557
▁does	-1558
▁free	-1559
▁hcik	-1560
▁help	-1561
▁itin	-1562
▁iyêk	-1563
▁mina	-1564
▁morn	-1565
▁open	-1566
▁stop	-1567
▁tipp	-1568
▁usin	-1569
▁walk	-1570
▁were	-1571
▁wâwa	-1572
thikun	-1573
▁anohc	-1574
▁nisit	-1575
▁wêpin	-1576
▁bridle	-1577
▁father	-1578
▁island	-1579
▁sister	-1580
▁astotin	-1581
▁morning	-1582
▁âpaciht	-1583
▁nissewun	-1584
▁wâpahtên	-1585
▁kiskinwaham	-1586
ns	-1587
to	-1588
ama	-1589
ohp	-1590
iwêw	-1591
ting	-1592
umak	-1593
âyik	-1594
▁bat	-1595
▁fri	-1596
▁nah	-1597
▁som	-1598
▁uss	-1599
▁wâs	-1600
▁wîs	-1601
▁âci	-1602
glish	-1603
ikwan	-1604
▁atik	-1605
▁fall	-1606
▁feel	-1607
▁have	-1608
▁ikow	-1609
▁ispe	-1610
▁kiya	-1611
▁post	-1612
▁sick	-1613
▁take	-1614
▁utai	-1615
▁weya	-1616
▁wâwi	-1617
▁apisk	-1618
▁great	-1619
▁iskwa	-1620
▁kitâp	-1621
▁kotak	-1622
▁river	-1623
▁today	-1624
▁êhati	-1625
êyihcik	-1626
▁appear	-1627
▁beaver	-1628
▁kakwât	-1629
▁nakwun	-1630
▁uhikun	-1631
▁english	-1632
▁isiyihk	-1633
▁leather	-1634
▁pimohtê	-1635
▁kukwatuk	-1636
▁mamihcim	-1637
co	-1638
ied	-1639
ohn	-1640
orm	-1641
wim	-1642
ôta	-1643
▁fi	-1644
▁ir	-1645
▁je	-1646
▁wâ	-1647
ants	-1648
ings	-1649
itao	-1650
wast	-1651
▁fle	-1652
▁rat	-1653
▁ref	-1654
▁rel	-1655
▁ses	-1656
▁sho	-1657
▁swe	-1658
ently	-1659
ooche	-1660
▁chep	-1661
▁ikon	-1662
▁inst	-1663
▁isit	-1664
▁john	-1665
▁meat	-1666
▁oyit	-1667
▁task	-1668
▁tent	-1669
▁upon	-1670
▁êmiy	-1671
▁bound	-1672
▁canoe	-1673
▁first	-1674
▁goose	-1675
▁kuske	-1676
▁nîkân	-1677
▁weche	-1678
hewawin	-1679
▁common	-1680
▁fright	-1681
▁isicik	-1682
▁kitakî	-1683
▁soomin	-1684
▁measure	-1685
▁ookimow	-1686
▁tumoowin	-1687
sh	-1688
owe	-1689
upe	-1690
▁17	-1691
▁ci	-1692
▁ju	-1693
eral	-1694
htik	-1695
inio	-1696
isik	-1697
uyeh	-1698
▁ant	-1699
▁far	-1700
▁gar	-1701
▁hur	-1702
▁lin	-1703
▁môs	-1704
▁pîh	-1705
▁sad	-1706
▁say	-1707
▁sîs	-1708
▁tâw	-1709
▁waw	-1710
▁êwî	-1711
▁îhk	-1712
ihcêt	-1713
ities	-1714
âkosi	-1715
▁blue	-1716
▁char	-1717
▁corn	-1718
▁cour	-1719
▁etow	-1720
▁food	-1721
▁here	-1722
▁inde	-1723
▁lies	-1724
▁mark	-1725
▁serv	-1726
▁temp	-1727
▁wesk	-1728
▁west	-1729
▁wife	-1730
▁ôtên	-1731
ticoat	-1732
▁horse	-1733
▁kinos	-1734
▁kâhit	-1735
▁light	-1736
▁meywa	-1737
▁nesoo	-1738
▁pupuk	-1739
▁while	-1740
▁animal	-1741
▁htâkos	-1742
▁miywâs	-1743
▁pekisk	-1744
▁winihk	-1745
▁kistêyi	-1746
▁pîhtikw	-1747
sp	-1748
âc	-1749
▁_	-1750
ict	-1751
man	-1752
▁ca	-1753
▁ry	-1754
akin	-1755
iskâ	-1756
utow	-1757
ving	-1758
ânan	-1759
ânis	-1760
âtin	-1761
▁ber	-1762
▁mah	-1763
▁mid	-1764
▁nao	-1765
▁nuk	-1766
▁pan	-1767
▁pat	-1768
▁piy	-1769
▁tun	-1770
▁val	-1771
ually	-1772
▁apis	-1773
▁arri	-1774
▁asam	-1775
▁atim	-1776
▁ayuk	-1777
▁boat	-1778
▁cord	-1779
▁hair	-1780
▁ikun	-1781
▁iwâw	-1782
▁kahk	-1783
▁kakî	-1784
▁moon	-1785
▁pres	-1786
▁prop	-1787
▁verb	-1788
▁êkîh	-1789
▁cross	-1790
▁grand	-1791
▁house	-1792
▁kisiw	-1793
▁point	-1794
▁pukum	-1795
▁stick	-1796
iskinoh	-1797
▁linger	-1798
▁âtisiy	-1799
wachikun	-1800
▁against	-1801
htopiponê	-1802
▁daughter	-1803
▁petticoat	-1804
▁miywêyihtam	-1805
▁itahtopiponê	-1806
den	-1807
ief	-1808
les	-1809
rup	-1810
ult	-1811
uwa	-1812
êwi	-1813
▁20	-1814
▁ep	-1815
▁ph	-1816
▁pâ	-1817
▁vo	-1818
▁îs	-1819
▁ôk	-1820
angu	-1821
atêw	-1822
ohci	-1823
requ	-1824
resh	-1825
skow	-1826
ôniy	-1827
▁ago	-1828
▁cle	-1829
▁dri	-1830
▁les	-1831
▁med	-1832
▁sac	-1833
▁sat	-1834
▁wuy	-1835
ikisk	-1836
âskom	-1837
îhcik	-1838
▁high	-1839
▁htên	-1840
▁iskw	-1841
▁list	-1842
▁nask	-1843
▁nice	-1844
▁nâhk	-1845
▁pikw	-1846
▁poos	-1847
▁skew	-1848
▁tell	-1849
▁tôta	-1850
▁âcim	-1851
▁âyit	-1852
▁about	-1853
▁break	-1854
▁eight	-1855
▁kumik	-1856
▁kâkîh	-1857
▁langu	-1858
▁mitas	-1859
▁nikot	-1860
▁odche	-1861
▁pikoo	-1862
▁pîsim	-1863
▁sâkih	-1864
▁tahto	-1865
▁thick	-1866
▁ayisiy	-1867
▁follow	-1868
▁friend	-1869
▁kitema	-1870
▁kwiusk	-1871
▁express	-1872
▁niyânan	-1873
▁pakitin	-1874
▁minihkwê	-1875
▁nakoosew	-1876
▁tôtamowin	-1877
▁étakoosew	-1878
▁nitawêyihta	-1879
bb	-1880
▁»	-1881
ami	-1882
awâ	-1883
ect	-1884
ene	-1885
ety	-1886
okê	-1887
osi	-1888
oud	-1889
pis	-1890
uct	-1891
ukw	-1892
ute	-1893
wêt	-1894
ôsk	-1895
▁18	-1896
▁hâ	-1897
▁io	-1898
▁îw	-1899
▁ôh	-1900
fore	-1901
isît	-1902
ning	-1903
▁don	-1904
▁fin	-1905
▁ful	-1906
▁hos	-1907
▁ice	-1908
▁itê	-1909
▁kap	-1910
▁ple	-1911
▁spr	-1912
ohcik	-1913
▁ahâw	-1914
▁know	-1915
▁make	-1916
▁tast	-1917
▁twin	-1918
▁tâhk	-1919
epuyew	-1920
iskwao	-1921
okimâw	-1922
▁diffe	-1923
▁kawin	-1924
▁stand	-1925
▁stone	-1926
▁wîcêw	-1927
askisin	-1928
oostoos	-1929
▁kîkwây	-1930
▁maskos	-1931
▁pipoon	-1932
▁twenty	-1933
akiimoon	-1934
▁kwayask	-1935
▁wiyasiw	-1936
▁kakwêcim	-1937
▁offering	-1938
▁wîhtamaw	-1939
▁isiyihkâso	-1940
▁localities	-1941
▁kiskinohama	-1942
▁kihcihokimâw	-1943
▁uspuakiimoon	-1944
pô	-1945
ady	-1946
aka	-1947
ces	-1948
hed	-1949
opp	-1950
ten	-1951
urn	-1952
éch	-1953
apow	-1954
cess	-1955
eyow	-1956
imew	-1957
irit	-1958
iska	-1959
itim	-1960
osis	-1961
self	-1962
uhum	-1963
umew	-1964
âtêw	-1965
▁cer	-1966
▁end	-1967
▁ers	-1968
▁hêw	-1969
▁iwi	-1970
▁mut	-1971
▁rep	-1972
▁sub	-1973
▁sîw	-1974
▁tom	-1975
▁yik	-1976
akwan	-1977
oosap	-1978
▁akik	-1979
▁amaw	-1980
▁dest	-1981
▁glor	-1982
▁hati	-1983
▁hear	-1984
▁hkik	-1985
▁lake	-1986
▁otin	-1987
▁pasp	-1988
▁poll	-1989
▁size	-1990
▁term	-1991
▁weak	-1992
ooskow	-1993
▁iyihk	-1994
▁iyiki	-1995
▁miyik	-1996
▁oosaw	-1997
▁owina	-1998
▁their	-1999
▁throw	-2000
▁weyip	-2001
▁hitoht	-2002
▁certain	-2003
▁outside	-2004
▁language	-2005
▁nanâskom	-2006
▁different	-2007
▁pîkiskwêwin	-2008
ol	-2009
▁0	-2010
ade	-2011
ika	-2012
âci	-2013
âmi	-2014
▁ax	-2015
▁bu	-2016
▁nu	-2017
▁ox	-2018
▁ze	-2019
▁îk	-2020
ense	-2021
ggin	-2022
iyan	-2023
iyow	-2024
ocik	-2025
umio	-2026
ôtêm	-2027
▁arm	-2028
▁bag	-2029
▁bec	-2030
▁cat	-2031
▁ced	-2032
▁cre	-2033
▁cut	-2034
▁ich	-2035
▁kwâ	-2036
▁law	-2037
▁mar	-2038
▁mek	-2039
▁mew	-2040
▁mur	-2041
▁mêw	-2042
▁ren	-2043
▁run	-2044
▁sow	-2045
▁try	-2046
▁tup	-2047
▁wao	-2048
▁wew	-2049
âtaht	-2050
▁awîn	-2051
▁ayew	-2052
▁blow	-2053
▁cold	-2054
▁cons	-2055
▁ekwa	-2056
▁full	-2057
▁htân	-2058
▁ikoo	-2059
▁mohk	-2060
▁ooti	-2061
▁past	-2062
▁peop	-2063
▁pine	-2064
▁pipe	-2065
▁swim	-2066
▁thus	-2067
▁âtam	-2068
▁âyân	-2069
▁birth	-2070
▁hotin	-2071
▁makan	-2072
▁moose	-2073
▁night	-2074
▁nihtâ	-2075
▁nikîh	-2076
▁pamih	-2077
▁sugar	-2078
▁ukwun	-2079
▁ussew	-2080
▁watch	-2081
▁âhkos	-2082
▁before	-2083
▁happen	-2084
▁kakwan	-2085
▁pisisk	-2086
▁utoosk	-2087
▁wapisk	-2088
▁wuskwi	-2089
▁country	-2090
▁station	-2091
▁kaskihtâ	-2092
▁mitâtaht	-2093
▁nikotwâs	-2094
▁êyihtâkwan	-2095
ane	-2096
ell	-2097
htâ	-2098
ify	-2099
irl	-2100
ume	-2101
wâm	-2102
êsi	-2103
▁19	-2104
▁ll	-2105
▁nê	-2106
akay	-2107
atio	-2108
cend	-2109
ikio	-2110
otam	-2111
tast	-2112
▁dry	-2113
▁hus	-2114
▁ies	-2115
▁ina	-2116
▁kek	-2117
▁kât	-2118
▁nic	-2119
▁pew	-2120
▁sas	-2121
▁wîp	-2122
▁ôki	-2123
berry	-2124
ikoon	-2125
itawi	-2126
otton	-2127
pital	-2128
stand	-2129
wayow	-2130
▁bene	-2131
▁flee	-2132
▁frog	-2133
▁kach	-2134
▁kost	-2135
▁kîpê	-2136
▁land	-2137
▁ning	-2138
▁noun	-2139
▁nîso	-2140
▁ohcî	-2141
▁oosa	-2142
▁owâw	-2143
▁prep	-2144
▁spec	-2145
▁tend	-2146
▁thre	-2147
▁wild	-2148
▁yisk	-2149
ewawin	-2150
ichich	-2151
ikawin	-2152
▁hamâk	-2153
▁inter	-2154
▁kitan	-2155
▁kitap	-2156
▁menis	-2157
▁miyit	-2158
▁mumat	-2159
▁oosap	-2160
▁papak	-2161
▁three	-2162
▁tisew	-2163
▁twine	-2164
▁tâkos	-2165
▁visit	-2166
▁would	-2167
▁asâkay	-2168
▁corrup	-2169
▁cotton	-2170
▁hikwak	-2171
▁kiyokê	-2172
▁kâhisi	-2173
▁kîhati	-2174
▁mahcih	-2175
▁ooskow	-2176
▁winter	-2177
▁wâpaht	-2178
▁wâpisk	-2179
▁ayukusk	-2180
▁kusketa	-2181
▁kîsikâk	-2182
▁children	-2183
▁hospital	-2184
▁moostoos	-2185
▁ayisiyiniw	-2186
ia	-2187
▁x	-2188
apa	-2189
ina	-2190
ipp	-2191
ley	-2192
oto	-2193
ove	-2194
pin	-2195
uit	-2196
ump	-2197
âkê	-2198
ôsi	-2199
▁24	-2200
▁25	-2201
▁eg	-2202
▁ov	-2203
▁pu	-2204
ater	-2205
itio	-2206
iyak	-2207
iyik	-2208
owat	-2209
tahk	-2210
umow	-2211
usoo	-2212
waci	-2213
âstê	-2214
ômin	-2215
▁ang	-2216
▁ary	-2217
▁ble	-2218
▁cîs	-2219
▁den	-2220
▁fit	-2221
▁gun	-2222
▁ici	-2223
▁kwa	-2224
▁kêh	-2225
▁moo	-2226
▁pri	-2227
▁sur	-2228
▁sus	-2229
▁wah	-2230
▁why	-2231
▁wêy	-2232
akiht	-2233
ately	-2234
wasin	-2235
▁acik	-2236
▁atâw	-2237
▁ence	-2238
▁eyin	-2239
▁foot	-2240
▁hurt	-2241
▁ikoy	-2242
▁inaw	-2243
▁kisi	-2244
▁kiwî	-2245
▁maci	-2246
▁male	-2247
▁nine	-2248
▁nusk	-2249
▁owio	-2250
▁pick	-2251
▁pray	-2252
▁talk	-2253
▁vote	-2254
▁âwiy	-2255
▁astis	-2256
▁beaut	-2257
▁destr	-2258
▁indec	-2259
▁iyâhk	-2260
▁kîhit	-2261
▁macih	-2262
▁nôtin	-2263
▁ocche	-2264
▁sesep	-2265
▁sikun	-2266
▁smell	-2267
▁soosk	-2268
▁thank	-2269
▁usual	-2270
▁wesuk	-2271
▁wîpac	-2272
▁âhtik	-2273
▁eyinew	-2274
▁mihcêt	-2275
▁mêtawê	-2276
▁nooche	-2277
▁otâkay	-2278
▁willow	-2279
▁general	-2280
▁kinosêw	-2281
▁maskihk	-2282
▁otânisa	-2283
▁sipwêht	-2284
▁deceiver	-2285
▁kitohcik	-2286
▁wâpahtam	-2287
▁êyihtâkos	-2288
ail	-2289
air	-2290
een	-2291
ial	-2292
ima	-2293
ons	-2294
tat	-2295
▁22	-2296
▁ck	-2297
▁né	-2298
apoo	-2299
atow	-2300
awâs	-2301
eyuk	-2302
ible	-2303
ikwa	-2304
ions	-2305
isan	-2306
ooth	-2307
osin	-2308
pect	-2309
wati	-2310
▁atâ	-2311
▁axe	-2312
▁inc	-2313
▁kem	-2314
▁muk	-2315
▁ooy	-2316
▁owa	-2317
▁pun	-2318
▁six	-2319
▁tes	-2320
▁têh	-2321
▁ven	-2322
▁wus	-2323
itoon	-2324
ouble	-2325
▁amok	-2326
▁bark	-2327
▁beat	-2328
▁book	-2329
▁chek	-2330
▁kakw	-2331
▁less	-2332
▁misp	-2333
▁mita	-2334
▁moss	-2335
▁noos	-2336
▁noot	-2337
▁root	-2338
▁shir	-2339
▁âpoy	-2340
esikow	-2341
ôniyâw	-2342
▁amwak	-2343
▁arrow	-2344
▁begin	-2345
▁instr	-2346
▁kamik	-2347
▁kipah	-2348
▁kitem	-2349
▁koosk	-2350
▁kîwân	-2351
▁mouth	-2352
▁nitit	-2353
▁nâkat	-2354
▁pants	-2355
▁peace	-2356
▁seven	-2357
▁shoes	-2358
▁siwin	-2359
▁tight	-2360
▁wîkim	-2361
▁breaks	-2362
▁chetow	-2363
▁deadly	-2364
▁kâwiya	-2365
▁ohpiki	-2366
▁oweyuk	-2367
▁people	-2368
▁sîpihk	-2369
▁tahkik	-2370
▁toowin	-2371
▁usinne	-2372
▁âtisit	-2373
▁ênôhtê	-2374
▁feeling	-2375
▁ôtênâhk	-2376
▁chikawin	-2377
▁iyiniwak	-2378
▁kistikân	-2379
▁miywâsin	-2380
▁tâkosîhk	-2381
▁âtisiwin	-2382
af	-2383
bo	-2384
ob	-2385
oc	-2386
▁z	-2387
cle	-2388
ipe	-2389
itê	-2390
ize	-2391
law	-2392
ont	-2393
oog	-2394
ota	-2395
rew	-2396
rif	-2397
sel	-2398
îwi	-2399
▁21	-2400
▁23	-2401
▁ru	-2402
▁wi	-2403
apis	-2404
augh	-2405
ered	-2406
esis	-2407
etum	-2408
ipak	-2409
iske	-2410
iwao	-2411
iyân	-2412
less	-2413
osîh	-2414
teen	-2415
uwao	-2416
wâwi	-2417
âtêk	-2418
êkin	-2419
îmâw	-2420
▁alm	-2421
▁buy	-2422
▁dev	-2423
▁hio	-2424
▁hâw	-2425
▁iyé	-2426
▁kêk	-2427
▁lot	-2428
▁ost	-2429
▁own	-2430
▁rec	-2431
▁sob	-2432
▁tao	-2433
▁êyi	-2434
erful	-2435
oowio	-2436
wêwas	-2437
âhtâw	-2438
êyimo	-2439
▁ahpô	-2440
▁aman	-2441
▁bank	-2442
▁buck	-2443
▁cook	-2444
▁deep	-2445
▁eyek	-2446
▁face	-2447
▁fool	-2448
▁hisi	-2449
▁itik	-2450
▁itwê	-2451
▁iwak	-2452
▁kawe	-2453
▁kihc	-2454
▁nipâ	-2455
▁nito	-2456
▁owao	-2457
▁pair	-2458
▁rest	-2459
▁seal	-2460
▁seen	-2461
▁sepa	-2462
▁slow	-2463
▁sure	-2464
▁tamâ	-2465
▁tape	-2466
▁ties	-2467
▁ukoo	-2468
▁wash	-2469
▁âyan	-2470
▁êwîh	-2471
antity	-2472
ikakio	-2473
umowao	-2474
▁brush	-2475
▁chief	-2476
▁hewao	-2477
▁iskoo	-2478
▁keyam	-2479
▁kikah	-2480
▁kikîh	-2481
▁kitak	-2482
▁knife	-2483
▁kîwêt	-2484
▁mâcik	-2485
▁nikan	-2486
▁nisto	-2487
▁ookim	-2488
▁payik	-2489
▁poost	-2490
▁pound	-2491
▁print	-2492
▁smoke	-2493
▁sweet	-2494
▁tamaw	-2495
▁taste	-2496
▁âpisk	-2497
▁âtisi	-2498
estowao	-2499
▁agumew	-2500
▁awiyak	-2501
▁belong	-2502
▁htamân	-2503
▁listen	-2504
▁secret	-2505
▁tâniwê	-2506
▁corrupt	-2507
▁ispayik	-2508
▁kaskitê	-2509
▁kitâpam	-2510
▁mamihci	-2511
▁payiwak	-2512
▁polling	-2513
▁thought	-2514
▁weather	-2515
▁kamikohk	-2516
▁quantity	-2517
▁sipwêhtê	-2518
▁tipiskâk	-2519
▁êyihtahkik	-2520
br	-2521
ib	-2522
▁@	-2523
awn	-2524
dok	-2525
dom	-2526
edi	-2527
hti	-2528
ift	-2529
ilk	-2530
oin	-2531
ona	-2532
ors	-2533
ory	-2534
wêp	-2535
îki	-2536
▁26	-2537
▁28	-2538
▁29	-2539
▁mp	-2540
▁rs	-2541
▁sn	-2542
▁sy	-2543
▁âc	-2544
▁éw	-2545
ahki	-2546
anis	-2547
ases	-2548
band	-2549
esim	-2550
ewuk	-2551
ewun	-2552
here	-2553
iful	-2554
isiw	-2555
ison	-2556
iyim	-2557
rist	-2558
tapi	-2559
urge	-2560
âpwê	-2561
âwak	-2562
îtos	-2563
▁ave	-2564
▁bet	-2565
▁big	-2566
▁bow	-2567
▁fis	-2568
▁gra	-2569
▁hew	-2570
▁koc	-2571
▁map	-2572
▁osî	-2573
▁raw	-2574
▁reg	-2575
▁scr	-2576
▁sdk	-2577
▁suc	-2578
▁tas	-2579
▁twe	-2580
▁wut	-2581
atask	-2582
ember	-2583
icine	-2584
ikwân	-2585
isimo	-2586
oyahk	-2587
roach	-2588
thing	-2589
wards	-2590
▁ahik	-2591
▁akâm	-2592
▁appl	-2593
▁ayis	-2594
▁ayâw	-2595
▁cand	-2596
▁deer	-2597
▁door	-2598
▁evil	-2599
▁into	-2600
▁koot	-2601
▁maya	-2602
▁meet	-2603
▁mena	-2604
▁move	-2605
▁mway	-2606
▁mêsk	-2607
▁nata	-2608
▁neck	-2609
▁nikâ	-2610
▁once	-2611
▁pref	-2612
▁pret	-2613
▁pîhc	-2614
▁rise	-2615
▁shar	-2616
▁sock	-2617
▁supp	-2618
▁than	-2619
▁uhum	-2620
▁utin	-2621
▁warm	-2622
▁went	-2623
▁wune	-2624
▁yâni	-2625
▁êhay	-2626
tament	-2627
terday	-2628
upewin	-2629
âkanis	-2630
▁ayumé	-2631
▁bring	-2632
▁close	-2633
▁cover	-2634
▁doche	-2635
▁grasp	-2636
▁ihcik	-2637
▁iwâhk	-2638
▁kayâs	-2639
▁kwopp	-2640
▁looks	-2641
▁lower	-2642
▁mahti	-2643
▁manis	-2644
▁munit	-2645
▁nikah	-2646
▁nohtê	-2647
▁otâhk	-2648
▁pakit	-2649
▁paspî	-2650
▁plain	-2651
▁pusuk	-2652
▁pîtos	-2653
▁sepik	-2654
▁sisew	-2655
▁sîkah	-2656
▁tawâw	-2657
▁tisah	-2658
▁ukook	-2659
▁wâkan	-2660
▁âcimo	-2661
iskowao	-2662
isoowin	-2663
itoowin	-2664
▁ayimoo	-2665
▁colour	-2666
▁compan	-2667
▁hatosk	-2668
▁kinask	-2669
▁kitawî	-2670
▁mikwak	-2671
▁smooth	-2672
▁sorrow	-2673
▁taking	-2674
wapiskow	-2675
▁husband	-2676
▁kitimâk	-2677
▁looking	-2678
▁misiwan	-2679
▁waniskâ	-2680
▁wîcihik	-2681
▁followed	-2682
▁kenikwan	-2683
▁mahcihot	-2684
▁medicine	-2685
▁âtisiyit	-2686
▁sâkahikan	-2687
▁testament	-2688
▁yesterday	-2689
iskinohamâk	-2690
▁pimâtisiwin	-2691
bs	-2692
me	-2693
abb	-2694
ahi	-2695
als	-2696
ars	-2697
esh	-2698
iko	-2699
wac	-2700
wiw	-2701
âni	-2702
▁il	-2703
▁nî	-2704
▁ya	-2705
▁âm	-2706
atao	-2707
ceed	-2708
inaw	-2709
inct	-2710
iyin	-2711
rael	-2712
uhio	-2713
utin	-2714
ward	-2715
ways	-2716
wâta	-2717
wâyâ	-2718
ôtâk	-2719
▁add	-2720
▁akw	-2721
▁asp	-2722
▁cru	-2723
▁cry	-2724
▁def	-2725
▁hao	-2726
▁haw	-2727
▁hon	-2728
▁kiw	-2729
▁mic	-2730
▁môy	-2731
▁nio	-2732
▁nîm	-2733
▁nôk	-2734
▁par	-2735
▁sou	-2736
▁squ	-2737
▁tra	-2738
▁yay	-2739
▁âso	-2740
achek	-2741
asoon	-2742
esday	-2743
hewio	-2744
ipayi	-2745
iskaw	-2746
ition	-2747
iwahk	-2748
oohio	-2749
uskow	-2750
uture	-2751
wasis	-2752
▁away	-2753
▁cond	-2754
▁eats	-2755
▁fing	-2756
▁forg	-2757
▁glad	-2758
▁htah	-2759
▁hten	-2760
▁htâk	-2761
▁htât	-2762
▁iron	-2763
▁kîsi	-2764
▁late	-2765
▁lord	-2766
▁miyw	-2767
▁neya	-2768
▁niss	-2769
▁nohk	-2770
▁oose	-2771
▁oski	-2772
▁pask	-2773
▁soos	-2774
▁stra	-2775
▁tong	-2776
▁town	-2777
▁têpi	-2778
▁wani	-2779
▁âyim	-2780
▁êyan	-2781
amisît	-2782
isiyân	-2783
itohtê	-2784
tation	-2785
wayask	-2786
êyâkan	-2787
▁askiy	-2788
▁ction	-2789
▁earth	-2790
▁front	-2791
▁hatâw	-2792
▁hâcim	-2793
▁kukwa	-2794
▁later	-2795
▁liber	-2796
▁month	-2797
▁okimâ	-2798
▁pekis	-2799
▁roast	-2800
▁sharp	-2801
▁stret	-2802
▁sôhki	-2803
▁treat	-2804
▁têpwê	-2805
▁wekem	-2806
▁women	-2807
▁wowey	-2808
ihcikan	-2809
wêsikan	-2810
▁ascend	-2811
▁askîhk	-2812
▁atoskê	-2813
▁become	-2814
▁israel	-2815
▁itasin	-2816
▁kitêyi	-2817
▁meywap	-2818
▁misewa	-2819
▁powder	-2820
▁destroy	-2821
▁isîhcik	-2822
▁kiskisi	-2823
▁kitanip	-2824
▁mitunow	-2825
▁miywâyâ	-2826
▁natohta	-2827
▁present	-2828
▁wâpamât	-2829
ipêyihcik	-2830
▁distinct	-2831
▁mamâhtâw	-2832
▁wâpahtih	-2833
▁cihiwêwin	-2834
▁kiskinawâ	-2835
▁nisitohta	-2836
▁pêhitohtê	-2837
▁mistikowat	-2838
▁sôhkisiwin	-2839
▁pahkwêsikan	-2840
▁wiyasiwêwin	-2841
▁êyihtâkosiw	-2842
▁ukookwachikun	-2843
cy	-2844
fo	-2845
ans	-2846
api	-2847
ash	-2848
ced	-2849
eyu	-2850
iat	-2851
iay	-2852
isp	-2853
lic	-2854
rot	-2855
wai	-2856
âht	-2857
âti	-2858
éok	-2859
êhk	-2860
êna	-2861
ôht	-2862
▁ao	-2863
▁ba	-2864
▁ds	-2865
▁iz	-2866
▁ku	-2867
▁nd	-2868
▁nt	-2869
▁tâ	-2870
▁ék	-2871
ahik	-2872
anch	-2873
asis	-2874
cihc	-2875
ehao	-2876
ipuy	-2877
isim	-2878
isse	-2879
itaw	-2880
iwan	-2881
noon	-2882
otêw	-2883
owap	-2884
ried	-2885
tawe	-2886
tern	-2887
utam	-2888
wahk	-2889
âyim	-2890
âyit	-2891
êsâw	-2892
ôcih	-2893
▁abo	-2894
▁aff	-2895
▁ark	-2896
▁bab	-2897
▁ban	-2898
▁dec	-2899
▁hin	-2900
▁hki	-2901
▁ist	-2902
▁ive	-2903
▁kam	-2904
▁mer	-2905
▁mom	-2906
▁neh	-2907
▁nem	-2908
▁niw	-2909
▁paw	-2910
▁pig	-2911
▁pop	-2912
▁pot	-2913
▁pâh	-2914
▁row	-2915
▁ska	-2916
▁sum	-2917
▁tch	-2918
▁wed	-2919
▁wet	-2920
awisî	-2921
bling	-2922
cause	-2923
glass	-2924
ihciy	-2925
ihtên	-2926
ither	-2927
puyew	-2928
ument	-2929
âsimo	-2930
êskâk	-2931
▁akin	-2932
▁asoo	-2933
▁ates	-2934
▁ayik	-2935
▁camp	-2936
▁card	-2937
▁hang	-2938
▁harm	-2939
▁heav	-2940
▁hill	-2941
▁hkom	-2942
▁htaw	-2943
▁ikwa	-2944
▁iséw	-2945
▁iyow	-2946
▁koop	-2947
▁kîpa	-2948
▁lead	-2949
▁leav	-2950
▁nama	-2951
▁nipa	-2952
▁nâta	-2953
▁only	-2954
▁ooma	-2955
▁otam	-2956
▁path	-2957
▁pimi	-2958
▁poss	-2959
▁pôsi	-2960
▁rate	-2961
▁sake	-2962
▁ship	-2963
▁sign	-2964
▁very	-2965
▁wâsk	-2966
▁yani	-2967
akunew	-2968
askwut	-2969
eminuk	-2970
uakwan	-2971
urgeon	-2972
▁ayupe	-2973
▁canad	-2974
▁chach	-2975
▁check	-2976
▁fruit	-2977
▁isihk	-2978
▁kitam	-2979
▁kitas	-2980
▁kitit	-2981
▁mikoo	-2982
▁mitâs	-2983
▁nunat	-2984
▁nutow	-2985
▁ootow	-2986
▁ootuk	-2987
▁pwast	-2988
▁refer	-2989
▁sense	-2990
▁since	-2991
▁start	-2992
▁sêsâw	-2993
▁table	-2994
▁teach	-2995
▁tells	-2996
▁tipah	-2997
▁wecha	-2998
▁wrong	-2999
▁wuyan	-3000
▁wîsta	-3001
▁yôtin	-3002
▁always	-3003
▁atoskâ	-3004
▁carrot	-3005
▁change	-3006
▁cihciy	-3007
▁cîstah	-3008
▁finger	-3009
▁hcikan	-3010
▁iyiniw	-3011
▁koosta	-3012
▁kêhcin	-3013
▁mamisî	-3014
▁middle	-3015
▁miyâsk	-3016
▁mâmask	-3017
▁nistoo	-3018
▁priest	-3019
▁roggin	-3020
▁speech	-3021
▁spirit	-3022
▁spring	-3023
▁string	-3024
▁suffer	-3025
▁thirty	-3026
▁though	-3027
▁wayawî	-3028
▁yellow	-3029
iskowiao	-3030
oopuyewe	-3031
▁because	-3032
▁berries	-3033
▁isahwêw	-3034
▁iyiniwa	-3035
▁kimiwan	-3036
▁pukitin	-3037
▁sawêyim	-3038
▁stikwân	-3039
▁sôniyâw	-3040
requently	-3041
wawikumik	-3042
▁ministik	-3043
▁pakâsimo	-3044
▁pichikun	-3045
▁sturgeon	-3046
▁tomorrow	-3047
▁afternoon	-3048
▁daughters	-3049
▁maskawisî	-3050
▁maskihkîw	-3051
▁nissewuna	-3052
▁êyihtamân	-3053
▁instrument	-3054
▁understand	-3055
▁waskuhikun	-3056
▁nutoopuyewe	-3057
be	-3058
ee	-3059
gr	-3060
ix	-3061
lu	-3062
ph	-3063
pt	-3064
ale	-3065
ana	-3066
ari	-3067
asi	-3068
ges	-3069
hor	-3070
mer	-3071
oti	-3072
uce	-3073
unk	-3074
zen	-3075
âsi	-3076
▁27	-3077
▁fa	-3078
▁ty	-3079
▁ur	-3080
▁vt	-3081
▁ôc	-3082
anik	-3083
anit	-3084
ayim	-3085
câhk	-3086
eous	-3087
erve	-3088
etin	-3089
ewut	-3090
fort	-3091
full	-3092
ikas	-3093
inîk	-3094
tahi	-3095
urch	-3096
utim	-3097
âkih	-3098
âmin	-3099
âson	-3100
êkwâ	-3101
êpêw	-3102
ôhtî	-3103
▁act	-3104
▁air	-3105
▁bro	-3106
▁cip	-3107
▁cir	-3108
▁cow	-3109
▁cup	-3110
▁fif	-3111
▁hci	-3112
▁hta	-3113
▁inv	-3114
▁kne	-3115
▁kwe	-3116
▁kîm	-3117
▁kîn	-3118
▁leg	-3119
▁met	-3120
▁owi	-3121
▁pêk	-3122
▁pîw	-3123
▁tea	-3124
▁wît	-3125
▁yaw	-3126
▁ôhi	-3127
ahkin	-3128
anitô	-3129
astun	-3130
fully	-3131
ihito	-3132
ihtaw	-3133
iness	-3134
ootak	-3135
umoon	-3136
ussin	-3137
wâhtê	-3138
âpisk	-3139
êhtâw	-3140
▁aape	-3141
▁apoo	-3142
▁asik	-3143
▁body	-3144
▁came	-3145
▁chak	-3146
▁chow	-3147
▁city	-3148
▁clot	-3149
▁ehao	-3150
▁feed	-3151
▁firm	-3152
▁fist	-3153
▁hisp	-3154
▁hoon	-3155
▁ikio	-3156
▁isko	-3157
▁itis	-3158
▁jack	-3159
▁join	-3160
▁keya	-3161
▁kill	-3162
▁kisa	-3163
▁kise	-3164
▁kêkâ	-3165
▁main	-3166
▁mess	-3167
▁milk	-3168
▁mâma	-3169
▁môhk	-3170
▁ones	-3171
▁pich	-3172
▁pime	-3173
▁prov	-3174
▁road	-3175
▁shak	-3176
▁shoe	-3177
▁twow	-3178
▁têpw	-3179
▁uske	-3180
▁wapu	-3181
▁wiht	-3182
▁wish	-3183
▁âsay	-3184
▁êhos	-3185
amâkêw	-3186
atisew	-3187
ikunew	-3188
imewao	-3189
ipooch	-3190
mother	-3191
ookoon	-3192
owsers	-3193
umakio	-3194
▁anohk	-3195
▁birch	-3196
▁dress	-3197
▁drink	-3198
▁fight	-3199
▁green	-3200
▁happy	-3201
▁heart	-3202
▁hocik	-3203
▁ihkân	-3204
▁issen	-3205
▁kukuy	-3206
▁kîhay	-3207
▁makoo	-3208
▁mikot	-3209
▁nunak	-3210
▁oosew	-3211
▁owist	-3212
▁pasik	-3213
▁payin	-3214
▁payiw	-3215
▁shirt	-3216
▁somet	-3217
▁thorn	-3218
▁threa	-3219
▁toota	-3220
▁tâcik	-3221
▁tâtin	-3222
▁têpak	-3223
▁worth	-3224
▁âtiht	-3225
▁êmiyw	-3226
▁ahcâhk	-3227
▁apiwin	-3228
▁assist	-3229
▁butter	-3230
▁charge	-3231
▁commun	-3232
▁comple	-3233
▁contin	-3234
▁ikamik	-3235
▁inform	-3236
▁isiwak	-3237
▁istahi	-3238
▁kiskey	-3239
▁kistiy	-3240
▁mwayês	-3241
▁mâmawi	-3242
▁nekane	-3243
▁nootim	-3244
▁proper	-3245
▁really	-3246
▁sacrif	-3247
▁stream	-3248
▁tongue	-3249
▁twawin	-3250
▁êhitwê	-3251
▁êmêkwâ	-3252
âkosiwin	-3253
êwikamik	-3254
▁htamwak	-3255
▁kîsihtâ	-3256
▁ussiche	-3257
▁weskoos	-3258
▁âpihtaw	-3259
▁kiskêyim	-3260
▁môsahkin	-3261
▁nîmihito	-3262
▁trowsers	-3263
▁îwikamik	-3264
▁kakwâtaki	-3265
▁kitemakay	-3266
▁simâkanis	-3267
▁masinahikê	-3268
▁nikotwâsik	-3269
▁tapiskakun	-3270
▁mussinthikun	-3271
ls	-3272
vi	-3273
vo	-3274
xt	-3275
ym	-3276
asa	-3277
ayi	-3278
cup	-3279
ens	-3280
hoo	-3281
ils	-3282
iyé	-3283
ues	-3284
uhe	-3285
▁ge	-3286
▁mô	-3287
▁ts	-3288
▁îh	-3289
▁‘‘	-3290
ains	-3291
apak	-3292
apid	-3293
atum	-3294
hing	-3295
htaw	-3296
ides	-3297
ihto	-3298
imes	-3299
ipoo	-3300
ised	-3301
iten	-3302
iyuk	-3303
ject	-3304
ootw	-3305
oses	-3306
osôm	-3307
ouch	-3308
rect	-3309
ross	-3310
ural	-3311
wâki	-3312
wêsk	-3313
âtam	-3314
âtow	-3315
êsis	-3316
êsiw	-3317
ôtên	-3318
▁aya	-3319
▁boy	-3320
▁cim	-3321
▁ens	-3322
▁god	-3323
▁int	-3324
▁ito	-3325
▁nep	-3326
▁nor	-3327
▁pal	-3328
▁siw	-3329
▁sâp	-3330
▁wio	-3331
▁âya	-3332
acher	-3333
akwât	-3334
apich	-3335
askan	-3336
askin	-3337
cover	-3338
erous	-3339
icked	-3340
ihtân	-3341
ision	-3342
oonio	-3343
osisi	-3344
tamâk	-3345
tawâs	-3346
tawêw	-3347
ukoos	-3348
wêsis	-3349
▁akum	-3350
▁amoo	-3351
▁bell	-3352
▁calf	-3353
▁calm	-3354
▁cihk	-3355
▁conc	-3356
▁draw	-3357
▁edge	-3358
▁find	-3359
▁girl	-3360
▁grey	-3361
▁hast	-3362
▁hell	-3363
▁imin	-3364
▁kesi	-3365
▁kâwi	-3366
▁live	-3367
▁love	-3368
▁must	-3369
▁mâcî	-3370
▁méch	-3371
▁nipê	-3372
▁osiw	-3373
▁osâm	-3374
▁plac	-3375
▁pole	-3376
▁poor	-3377
▁real	-3378
▁salt	-3379
▁seed	-3380
▁show	-3381
▁skow	-3382
▁smok	-3383
▁stay	-3384
▁thin	-3385
▁tipi	-3386
▁uwao	-3387
▁wrap	-3388
▁writ	-3389
▁âpis	-3390
▁âtân	-3391
anitôm	-3392
apowew	-3393
askooh	-3394
askoom	-3395
atives	-3396
awimos	-3397
ewuyan	-3398
itunow	-3399
iyimoo	-3400
owukow	-3401
âhikan	-3402
âhkosi	-3403
▁accus	-3404
▁akoos	-3405
▁among	-3406
▁astân	-3407
▁awasi	-3408
▁ayech	-3409
▁berry	-3410
▁bless	-3411
▁broad	-3412
▁chest	-3413
▁clear	-3414
▁conce	-3415
▁crook	-3416
▁flesh	-3417
▁fresh	-3418
▁grass	-3419
▁hikot	-3420
▁ihtak	-3421
▁itôta	-3422
▁iyinî	-3423
▁kisep	-3424
▁kisis	-3425
▁kwâsk	-3426
▁kâhay	-3427
▁laugh	-3428
▁leave	-3429
▁mowin	-3430
▁nanes	-3431
▁nêpêw	-3432
▁oomis	-3433
▁pakos	-3434
▁pipon	-3435
▁pitch	-3436
▁poosk	-3437
▁press	-3438
▁rapid	-3439
▁screw	-3440
▁separ	-3441
▁sight	-3442
▁susep	-3443
▁tions	-3444
▁tâkot	-3445
▁tôtên	-3446
▁uspin	-3447
▁wasin	-3448
▁yimao	-3449
▁âstam	-3450
wêwasim	-3451
▁across	-3452
▁ahikun	-3453
▁akawin	-3454
▁anyone	-3455
▁apisîs	-3456
▁askîwi	-3457
▁called	-3458
▁christ	-3459
▁church	-3460
▁coming	-3461
▁desire	-3462
▁ground	-3463
▁ikatêw	-3464
▁ikonaw	-3465
▁ikoyêk	-3466
▁ikâtêk	-3467
▁kisâst	-3468
▁kiyâsk	-3469
▁kâmâwa	-3470
▁mechim	-3471
▁micimi	-3472
▁moonth	-3473
▁muchay	-3474
▁munito	-3475
▁natona	-3476
▁ohiwêw	-3477
▁pasikô	-3478
▁please	-3479
▁prefix	-3480
▁tootum	-3481
▁tâkwak	-3482
▁usiske	-3483
atisewin	-3484
tastotin	-3485
▁atoskêw	-3486
▁comfort	-3487
▁manitow	-3488
▁matinum	-3489
▁nutoway	-3490
▁nâpêsis	-3491
▁okosisi	-3492
▁oosikoo	-3493
▁oskinîk	-3494
▁piskihc	-3495
▁respect	-3496
▁someone	-3497
▁strange	-3498
▁succeed	-3499
▁takwâki	-3500
▁trouble	-3501
▁têhtapi	-3502
▁wîcihin	-3503
akoosewin	-3504
awimoscik	-3505
eminukuse	-3506
▁approach	-3507
▁htâkosit	-3508
▁iskwêsis	-3509
▁kawisimo	-3510
▁kimiwahk	-3511
▁masinaha	-3512
▁nayêhtâw	-3513
▁tâpwêwak	-3514
▁beautiful	-3515
▁elections	-3516
▁kitahohci	-3517
▁kîsikâyik	-3518
▁sometimes	-3519
▁pakosêyimo	-3520
▁kitimâkinaw	-3521
▁miywêyihtên	-3522
▁naskwêwasim	-3523
▁pimâtisiyân	-3524
▁infrequently	-3525
ae	-3526
fe	-3527
gn	-3528
ug	-3529
wî	-3530
îy	-3531
ôc	-3532
act	-3533
bac	-3534
els	-3535
iso	-3536
kun	-3537
ned	-3538
otâ	-3539
pek	-3540
ses	-3541
sok	-3542
une	-3543
urs	-3544
wew	-3545
wuk	-3546
âpâ	-3547
îst	-3548
▁31	-3549
▁dk	-3550
▁ic	-3551
▁éo	-3552
aape	-3553
akan	-3554
alse	-3555
anan	-3556
apin	-3557
ared	-3558
ason	-3559
awuk	-3560
dden	-3561
eche	-3562
ehio	-3563
etuk	-3564
foot	-3565
ikêw	-3566
isum	-3567
ituk	-3568
iwêt	-3569
omin	-3570
toot	-3571
ught	-3572
ular	-3573
umaw	-3574
uske	-3575
uwap	-3576
vere	-3577
âpân	-3578
êski	-3579
êsîs	-3580
îwêy	-3581
▁bed	-3582
▁div	-3583
▁dur	-3584
▁egg	-3585
▁fat	-3586
▁ger	-3587
▁isa	-3588
▁itu	-3589
▁itô	-3590
▁jud	-3591
▁kék	-3592
▁ner	-3593
▁nâs	-3594
▁nêm	-3595
▁ord	-3596
▁pey	-3597
▁pok	-3598
▁por	-3599
▁pra	-3600
▁pên	-3601
▁reb	-3602
▁rid	-3603
▁spy	-3604
▁tio	-3605
▁wis	-3606
▁yâm	-3607
▁âha	-3608
▁âst	-3609
▁âta	-3610
▁êhk	-3611
▁ôsi	-3612
aster	-3613
atosk	-3614
ighty	-3615
ikoos	-3616
ility	-3617
iskum	-3618
iswao	-3619
owina	-3620
usoow	-3621
âyimô	-3622
▁ange	-3623
▁apét	-3624
▁ated	-3625
▁baby	-3626
▁bush	-3627
▁case	-3628
▁chas	-3629
▁clay	-3630
▁crow	-3631
▁dark	-3632
▁dawn	-3633
▁decl	-3634
▁desp	-3635
▁disc	-3636
▁dise	-3637
▁even	-3638
▁ewew	-3639
▁eyap	-3640
▁five	-3641
▁flat	-3642
▁gift	-3643
▁give	-3644
▁gray	-3645
▁grow	-3646
▁htâw	-3647
▁ight	-3648
▁kaya	-3649
▁king	-3650
▁kisp	-3651
▁kwan	-3652
▁miak	-3653
▁mikw	-3654
▁mind	-3655
▁next	-3656
▁odpi	-3657
▁omac	-3658
▁osit	-3659
▁otit	-3660
▁owan	-3661
▁pihk	-3662
▁pisi	-3663
▁prom	-3664
▁pupa	-3665
▁requ	-3666
▁soup	-3667
▁turn	-3668
▁uses	-3669
▁utam	-3670
▁wool	-3671
▁wîcê	-3672
▁âsot	-3673
▁ênip	-3674
▁êpak	-3675
asikan	-3676
ikasoo	-3677
isikun	-3678
itimâk	-3679
ording	-3680
owayân	-3681
selves	-3682
uyehao	-3683
wâhtêm	-3684
▁akwan	-3685
▁astêk	-3686
▁ative	-3687
▁ayach	-3688
▁below	-3689
▁board	-3690
▁bride	-3691
▁cedar	-3692
▁chich	-3693
▁court	-3694
▁dimin	-3695
▁false	-3696
▁floor	-3697
▁frequ	-3698
▁greet	-3699
▁hands	-3700
▁hayât	-3701
▁kanât	-3702
▁kisit	-3703
▁kisîp	-3704
▁kunis	-3705
▁kuské	-3706
▁kâpêh	-3707
▁mitat	-3708
▁nakut	-3709
▁neyan	-3710
▁nimis	-3711
▁nohtâ	-3712
▁nétaw	-3713
▁ohtâw	-3714
▁ooche	-3715
▁oochi	-3716
▁papâm	-3717
▁pukwa	-3718
▁rough	-3719
▁satur	-3720
▁shore	-3721
▁steep	-3722
▁storm	-3723
▁tapas	-3724
▁tapwa	-3725
▁tawât	-3726
▁tippt	-3727
▁toowe	-3728
▁track	-3729
▁trict	-3730
▁waspi	-3731
▁wuyuw	-3732
▁wétum	-3733
▁years	-3734
▁âskaw	-3735
▁âwiya	-3736
▁âyâhk	-3737
akihtâw	-3738
apisoon	-3739
uskisin	-3740
▁almost	-3741
▁arrive	-3742
▁asikan	-3743
▁branch	-3744
▁enough	-3745
▁finish	-3746
▁freeze	-3747
▁future	-3748
▁garter	-3749
▁ispish	-3750
▁itisah	-3751
▁itwâwi	-3752
▁ketwam	-3753
▁kikakî	-3754
▁koopan	-3755
▁mispon	-3756
▁mâwaci	-3757
▁necess	-3758
▁nikakî	-3759
▁nisito	-3760
▁owasis	-3761
▁paiyuk	-3762
▁papâmi	-3763
▁pastam	-3764
▁pukoon	-3765
▁puskin	-3766
▁repent	-3767
▁sudden	-3768
▁summer	-3769
▁thirst	-3770
▁valley	-3771
▁wicked	-3772
▁wâkana	-3773
▁âpihtâ	-3774
awâsimis	-3775
ikiskisi	-3776
▁applied	-3777
▁arrived	-3778
▁correct	-3779
▁foolish	-3780
▁kakêski	-3781
▁kanawâp	-3782
▁kesikak	-3783
▁kesikow	-3784
▁kinôhtê	-3785
▁kitakîh	-3786
▁kocihtâ	-3787
▁kîkwaya	-3788
▁mîcison	-3789
▁nothing	-3790
▁ooyakun	-3791
▁pimisin	-3792
▁takosin	-3793
▁tawâcik	-3794
▁towards	-3795
▁tuesday	-3796
▁tôtaman	-3797
▁wâpahta	-3798
▁wîkihto	-3799
▁younger	-3800
iyawêskâk	-3801
▁cheerful	-3802
▁complete	-3803
▁everyone	-3804
▁frequent	-3805
▁htâkwahk	-3806
▁imewawin	-3807
▁itasinah	-3808
▁kitamisi	-3809
▁kînitawi	-3810
▁remember	-3811
▁soominis	-3812
▁sâkaskin	-3813
▁tipiskâw	-3814
iskinwaham	-3815
▁according	-3816
▁frightful	-3817
▁iskwâhtêm	-3818
▁kiskinoha	-3819
▁mîcisowin	-3820
▁ohtâwîmâw	-3821
▁otastotin	-3822
▁pakuakwan	-3823
▁wâpamêwak	-3824
awimoscikêw	-3825
▁kitohcikan	-3826
▁tipêyihcik	-3827
▁grandmother	-3828
▁information	-3829
▁papakowayân	-3830
▁wanikiskisi	-3831
▁wasinahikan	-3832
▁êyihtamowin	-3833
▁misewapiskow	-3834
▁kakwâtakihtâw	-3835
ev	-3836
hh	-3837
tt	-3838
uc	-3839
alf	-3840
awl	-3841
ayé	-3842
ere	-3843
ery	-3844
eya	-3845
gat	-3846
gth	-3847
ier	-3848
isc	-3849
iyi	-3850
lar	-3851
lve	-3852
min	-3853
mon	-3854
ooi	-3855
pet	-3856
unt	-3857
uya	-3858
wâc	-3859
yaw	-3860
âna	-3861
âpi	-3862
êki	-3863
îmi	-3864
▁32	-3865
▁ai	-3866
▁ec	-3867
▁pî	-3868
▁wé	-3869
adow	-3870
aint	-3871
apes	-3872
ated	-3873
atis	-3874
atâw	-3875
cept	-3876
ding	-3877
ewao	-3878
ical	-3879
ices	-3880
ince	-3881
ises	-3882
itip	-3883
iwâk	-3884
iyiw	-3885
oken	-3886
omân	-3887
oowi	-3888
owan	-3889
ploy	-3890
rest	-3891
tach	-3892
uary	-3893
uhao	-3894
uish	-3895
umao	-3896
uous	-3897
usak	-3898
ustr	-3899
utes	-3900
utum	-3901
wani	-3902
ânês	-3903
âskw	-3904
âsow	-3905
âtis	-3906
âyâw	-3907
êhki	-3908
ênân	-3909
êpay	-3910
êpik	-3911
▁	-3912
i	-3913
a	-3914
o	-3915
s	-3916
k	-3917
t	-3918
e	-3919
n	-3920
w	-3921
h	-3922
m	-3923
p	-3924
1	-3925
u	-3926
r	-3927
y	-3928
c	-3929
â	-3930
l	-3931
ê	-3932
d	-3933
g	-3934
î	-3935
.	-3936
f	-3937
2	-3938
b	-3939
v	-3940
3	-3941
ô	-3942
4	-3943
(	-3944
)	-3945
é	-3946
6	-3947
5	-3948
j	-3949
7	-3950
?	-3951
;	-3952
8	-3953
x	-3954
,	-3955
-	-3956
’	-3957
q	-3958
9	-3959
&	-3960
0	-3961
‘	-3962
z	-3963
'	-3964
:	-3965
|	-3966
!	-3967
”	-3968
—	-3969
¢	-3970
“	-3971
_	-3972
»	-3973
@	-3974
/	-3975
*	-3976
«	-3977
]	-3978
}	-3979
§	-3980
#	-3981
=	-3982
\	-3983
~	-3984
°	-3985
%	-3986
+	-3987
[	-3988
"	-3989
¥	-3990
€	-3991
M	-3992
T	-3993
{	-3994
©	-3995
